<unk>	0
<s>	0
</s>	0
<pad>	0
▁"	-0
",	-1
":	-2
te	-3
ta	-4
on	-5
re	-6
▁a	-7
in	-8
sk	-9
ro	-10
task	-11
▁s	-12
mp	-13
er	-14
ti	-15
en	-16
pro	-17
le	-18
to	-19
{"	-20
▁{"	-21
▁c	-22
mpt	-23
prompt	-24
▁d	-25
se	-26
lo	-27
es	-28
]}	-29
▁[	-30
▁f	-31
ate	-32
"]}	-33
▁["	-34
tasks	-35
or	-36
▁u	-37
an	-38
ar	-39
ch	-40
ck	-41
tion	-42
al	-43
▁re	-44
▁m	-45
▁p	-46
▁b	-47
▁to	-48
et	-49
ra	-50
▁task	-51
it	-52
ing	-53
▁an	-54
res	-55
il	-56
▁in	-57
▁e	-58
ts	-59
▁lo	-60
ic	-61
ol	-62
ig	-63
is	-64
pon	-65
▁co	-66
ponse	-67
▁n	-68
"}	-69
▁-	-70
▁"-	-71
▁us	-72
response	-73
▁w	-74
▁and	-75
ct	-76
ed	-77
he	-78
ve	-79
▁t	-80
ter	-81
ze	-82
um	-83
un	-84
▁on	-85
▁da	-86
▁up	-87
ho	-88
ri	-89
▁ac	-90
De	-91
de	-92
end	-93
▁te	-94
ver	-95
fy	-96
▁l	-97
ize	-98
▁log	-99
ation	-100
ag	-101
us	-102
▁S	-103
▁o	-104
Cre	-105
▁ba	-106
Create	-107
ce	-108
▁i	-109
ent	-110
ine	-111
tim	-112
▁de	-113
▁sta	-114
tor	-115
▁user	-116
pe	-117
up	-118
edu	-119
les	-120
▁fi	-121
tify	-122
chedu	-123
ew	-124
vi	-125
ab	-126
st	-127
▁A	-128
Set	-129
ild	-130
uild	-131
chedule	-132
ur	-133
▁sy	-134
▁for	-135
▁comp	-136
ure	-137
at	-138
dd	-139
ste	-140
▁mo	-141
Build	-142
Add	-143
stem	-144
▁con	-145
▁system	-146
og	-147
den	-148
heck	-149
ay	-150
oc	-151
age	-152
ard	-153
ign	-154
▁sc	-155
dentify	-156
▁C	-157
ind	-158
mar	-159
▁no	-160
▁we	-161
ents	-162
ummar	-163
ma	-164
ut	-165
Log	-166
ers	-167
ist	-168
oni	-169
▁if	-170
▁of	-171
▁pl	-172
Identify	-173
ad	-174
bo	-175
Def	-176
igh	-177
date	-178
rack	-179
tool	-180
▁back	-181
onitor	-182
▁summar	-183
ba	-184
pp	-185
est	-186
por	-187
uto	-188
very	-189
Define	-190
▁check	-191
▁files	-192
ow	-193
ess	-194
able	-195
mind	-196
▁pro	-197
esign	-198
qu	-199
Con	-200
are	-201
hoo	-202
ity	-203
▁it	-204
time	-205
▁app	-206
▁loc	-207
▁data	-208
In	-209
Re	-210
ll	-211
ly	-212
ub	-213
ud	-214
ler	-215
own	-216
tus	-217
ight	-218
▁Log	-219
board	-220
▁mode	-221
letion	-222
▁every	-223
▁status	-224
▁Schedule	-225
▁h	-226
plo	-227
tes	-228
ype	-229
▁at	-230
mail	-231
ment	-232
tern	-233
▁plan	-234
▁usage	-235
▁Identify	-236
En	-237
am	-238
aun	-239
ily	-240
old	-241
Choo	-242
lert	-243
ocum	-244
ploy	-245
aunch	-246
▁logs	-247
Choose	-248
▁repor	-249
▁backup	-250
▁location	-251
▁completion	-252
ne	-253
▁g	-254
Wri	-255
low	-256
uct	-257
view	-258
Write	-259
▁track	-260
▁action	-261
▁remind	-262
pl	-263
rt	-264
th	-265
▁v	-266
chi	-267
ies	-268
orm	-269
teg	-270
tiv	-271
▁ch	-272
▁en	-273
▁ex	-274
Test	-275
rate	-276
rchi	-277
▁time	-278
▁tool	-279
Design	-280
▁daily	-281
▁email	-282
mo	-283
▁U	-284
Run	-285
aly	-286
ion	-287
ith	-288
sed	-289
sta	-290
vic	-291
▁fe	-292
Auto	-293
rain	-294
▁new	-295
▁with	-296
Enable	-297
Launch	-298
▁alert	-299
▁monitor	-300
ek	-301
ft	-302
gs	-303
mm	-304
ss	-305
▁G	-306
fig	-307
ten	-308
▁he	-309
▁so	-310
▁sp	-311
cess	-312
lean	-313
lect	-314
type	-315
ware	-316
▁rec	-317
▁res	-318
▁the	-319
▁archi	-320
▁model	-321
PI	-322
▁(	-323
▁P	-324
Imp	-325
and	-326
▁->	-327
▁bo	-328
▁ev	-329
▁qu	-330
▁un	-331
ance	-332
args	-333
ener	-334
load	-335
mate	-336
ptim	-337
Integ	-338
▁code	-339
▁temp	-340
▁week	-341
Deploy	-342
ternal	-343
tivity	-344
▁night	-345
▁report	-346
Automate	-347
Integrate	-348
ak	-349
ec	-350
gg	-351
▁2	-352
▁D	-353
)",	-354
gan	-355
ite	-356
ork	-357
ron	-358
ser	-359
tic	-360
▁UI	-361
▁di	-362
▁ho	-363
▁or	-364
▁ro	-365
List	-366
base	-367
form	-368
line	-369
tory	-370
tter	-371
▁per	-372
▁ser	-373
Train	-374
▁chan	-375
▁down	-376
▁team	-377
ganize	-378
ollect	-379
enerate	-380
ptimize	-381
▁update	-382
ge	-383
ke	-384
po	-385
sh	-386
▁1	-387
▁M	-388
▁T	-389
lop	-390
▁me	-391
Send	-392
ages	-393
arch	-394
back	-395
duct	-396
ense	-397
▁API	-398
▁cal	-399
▁mic	-400
▁web	-401
ction	-402
eting	-403
velop	-404
▁fold	-405
▁hour	-406
▁scan	-407
lement	-408
ration	-409
▁analy	-410
▁clean	-411
▁start	-412
▁weekly	-413
▁archive	-414
▁activity	-415
▁internal	-416
▁summarize	-417
PU	-418
jo	-419
ul	-420
ace	-421
day	-422
led	-423
ord	-424
ost	-425
ute	-426
▁as	-427
▁be	-428
▁jo	-429
down	-430
play	-431
tect	-432
▁min	-433
▁set	-434
endar	-435
stall	-436
ttery	-437
▁comm	-438
▁dash	-439
▁soft	-440
▁test	-441
ations	-442
figure	-443
search	-444
▁notes	-445
▁space	-446
▁tasks	-447
Collect	-448
Schedule	-449
boarding	-450
ocuments	-451
▁battery	-452
Implement	-453
▁calendar	-454
▁database	-455
▁download	-456
▁software	-457
▁dashboard	-458
▁onboarding	-459
el	-460
fi	-461
id	-462
io	-463
ix	-464
nc	-465
ph	-466
pt	-467
Hub	-468
amp	-469
che	-470
ges	-471
how	-472
int	-473
ish	-474
key	-475
lic	-476
one	-477
ror	-478
row	-479
ubl	-480
▁er	-481
▁sh	-482
▁vi	-483
▁wh	-484
alth	-485
etch	-486
mote	-487
nect	-488
reen	-489
udit	-490
▁CPU	-491
▁dis	-492
▁doc	-493
▁dur	-494
▁end	-495
▁his	-496
▁key	-497
▁lic	-498
▁sto	-499
itHub	-500
vices	-501
▁brow	-502
▁feed	-503
▁tech	-504
ublish	-505
▁based	-506
▁error	-507
▁micro	-508
ocument	-509
▁access	-510
▁during	-511
▁health	-512
▁notify	-513
▁screen	-514
formance	-515
▁browser	-516
▁history	-517
▁license	-518
▁meeting	-519
▁summary	-520
Configure	-521
▁feedback	-522
▁organize	-523
▁research	-524
▁downloads	-525
▁performance	-526
0%	-527
Al	-528
Up	-529
li	-530
ry	-531
ue	-532
▁3	-533
Fix	-534
Pre	-535
ack	-536
als	-537
fic	-538
ify	-539
ins	-540
ire	-541
ren	-542
ugg	-543
▁CI	-544
▁li	-545
▁pi	-546
▁st	-547
▁th	-548
ates	-549
ions	-550
ross	-551
ruct	-552
tive	-553
ures	-554
vers	-555
vice	-556
▁inf	-557
▁job	-558
▁lab	-559
▁spe	-560
Allow	-561
▁feat	-562
▁file	-563
▁sugg	-564
▁endpo	-565
▁fetch	-566
Connect	-567
Develop	-568
Monitor	-569
Publish	-570
ructure	-571
▁GitHub	-572
▁design	-573
▁events	-574
▁folder	-575
▁review	-576
Optimize	-577
▁changes	-578
▁display	-579
▁product	-580
▁suggest	-581
▁schedule	-582
▁tracking	-583
Sc	-584
as	-585
co	-586
iz	-587
ok	-588
ps	-589
▁N	-590
Sec	-591
Use	-592
ain	-593
alu	-594
ark	-595
ase	-596
ath	-597
ave	-598
dle	-599
ink	-600
iti	-601
log	-602
ore	-603
ort	-604
pen	-605
put	-606
ram	-607
sts	-608
ull	-609
▁AI	-610
▁AM	-611
▁Re	-612
▁ca	-613
▁im	-614
▁is	-615
▁ne	-616
▁ta	-617
ints	-618
reak	-619
ress	-620
ript	-621
tend	-622
tics	-623
vert	-624
▁clo	-625
▁cri	-626
▁dri	-627
▁eng	-628
▁low	-629
▁par	-630
▁pat	-631
▁tim	-632
Track	-633
ather	-634
phone	-635
▁apps	-636
▁auto	-637
▁cont	-638
▁disk	-639
▁docs	-640
▁form	-641
▁late	-642
▁mark	-643
▁news	-644
▁pipe	-645
▁when	-646
Secure	-647
▁hours	-648
▁inter	-649
▁login	-650
▁templ	-651
▁timer	-652
▁across	-653
▁active	-654
▁enable	-655
Document	-656
Generate	-657
▁reports	-658
▁startup	-659
▁updates	-660
▁meetings	-661
▁microphone	-662
DF	-663
Ex	-664
Sh	-665
VP	-666
ds	-667
ep	-668
im	-669
ks	-670
ls	-671
mb	-672
py	-673
sc	-674
ug	-675
ye	-676
▁9	-677
▁F	-678
▁R	-679
▁r	-680
Dra	-681
Pro	-682
ail	-683
ary	-684
cte	-685
dit	-686
etw	-687
ics	-688
ide	-689
lin	-690
our	-691
ran	-692
rec	-693
rib	-694
rom	-695
rst	-696
set	-697
ual	-698
ums	-699
uth	-700
ync	-701
▁30	-702
▁DN	-703
▁ag	-704
▁go	-705
▁po	-706
▁ra	-707
Hand	-708
Host	-709
cies	-710
cted	-711
fore	-712
hoto	-713
list	-714
lled	-715
naly	-716
onal	-717
plic	-718
port	-719
resh	-720
rint	-721
tent	-722
utes	-723
▁PDF	-724
▁all	-725
▁day	-726
▁dra	-727
▁exp	-728
▁old	-729
▁out	-730
▁por	-731
▁ret	-732
Audit	-733
Share	-734
akers	-735
idate	-736
lines	-737
ments	-738
terns	-739
tical	-740
tions	-741
▁auth	-742
▁conf	-743
▁copy	-744
▁find	-745
▁flow	-746
▁from	-747
▁fron	-748
▁idle	-749
▁invi	-750
▁load	-751
▁move	-752
▁netw	-753
▁open	-754
▁pers	-755
▁samp	-756
▁send	-757
▁sess	-758
▁show	-759
▁shut	-760
▁site	-761
▁them	-762
▁type	-763
▁work	-764
Handle	-765
Prepro	-766
Review	-767
Update	-768
aluate	-769
nalyze	-770
▁build	-771
▁cloud	-772
▁drive	-773
▁first	-774
▁infra	-775
▁input	-776
▁insta	-777
▁logic	-778
▁photo	-779
▁roles	-780
▁tests	-781
▁tools	-782
▁using	-783
▁before	-784
▁emails	-785
▁images	-786
▁latest	-787
▁record	-788
▁remote	-789
▁sprint	-790
▁analyze	-791
▁command	-792
▁content	-793
▁devices	-794
▁minutes	-795
▁network	-796
▁critical	-797
▁features	-798
▁frontend	-799
▁optimize	-800
▁patterns	-801
▁personal	-802
▁pipeline	-803
▁response	-804
▁shutdown	-805
▁speakers	-806
Preprocess	-807
▁analytics	-808
▁checklist	-809
▁installed	-810
▁interview	-811
00	-812
DK	-813
Ev	-814
Me	-815
Or	-816
Pl	-817
SO	-818
WS	-819
br	-820
dj	-821
do	-822
du	-823
je	-824
lp	-825
nd	-826
pu	-827
▁.	-828
▁5	-829
▁7	-830
▁>	-831
▁H	-832
▁J	-833
▁K	-834
▁O	-835
Ass	-836
Pus	-837
Rec	-838
Sto	-839
Tag	-840
Ver	-841
com	-842
con	-843
der	-844
for	-845
get	-846
gor	-847
ice	-848
ifi	-849
ile	-850
ise	-851
its	-852
nel	-853
ner	-854
omm	-855
ote	-856
out	-857
pic	-858
pts	-859
rac	-860
sho	-861
tom	-862
unt	-863
ust	-864
▁af	-865
▁hy	-866
▁se	-867
▁vo	-868
Hire	-869
Plan	-870
Push	-871
Save	-872
Show	-873
Sync	-874
abil	-875
ases	-876
cker	-877
cket	-878
eded	-879
eren	-880
gist	-881
izer	-882
ject	-883
leep	-884
lock	-885
onth	-886
pend	-887
sigh	-888
site	-889
tart	-890
udio	-891
used	-892
▁AWS	-893
▁DND	-894
▁Mon	-895
▁SDK	-896
▁[]}	-897
▁bot	-898
▁cus	-899
▁dev	-900
▁dup	-901
▁eye	-902
▁imp	-903
▁off	-904
▁pay	-905
▁ver	-906
▁vul	-907
Check	-908
Draft	-909
Store	-910
alize	-911
▁	-912
e	-913
"	-914
t	-915
s	-916
a	-917
o	-918
r	-919
n	-920
i	-921
p	-922
l	-923
c	-924
d	-925
m	-926
u	-927
,	-928
:	-929
k	-930
g	-931
h	-932
f	-933
y	-934
-	-935
b	-936
v	-937
{	-938
}	-939
w	-940
S	-941
[	-942
]	-943
C	-944
A	-945
D	-946
I	-947
\	-948
P	-949
L	-950
z	-951
T	-952
R	-953
x	-954
B	-955
M	-956
U	-957
E	-958
G	-959
H	-960
F	-961
0	-962
O	-963
W	-964
q	-965
.	-966
N	-967
j	-968
>	-969
(	-970
)	-971
/	-972
2	-973
V	-974
1	-975
3	-976
K	-977
%	-978
'	-979
5	-980
9	-981
7	-982
J	-983
Q	-984
X	-985
_	-986
4	-987
8	-988
<	-989
#	-990
*	-991
6	-992
Y	-993
Z	-994
~	-995
