<unk>	0
<s>	0
</s>	0
nt	-0
ge	-1
on	-2
in	-3
gent	-4
an	-5
re	-6
er	-7
▁A	-8
ti	-9
▁s	-10
ing	-11
ed	-12
▁Agent	-13
▁t	-14
lan	-15
at	-16
or	-17
▁P	-18
▁m	-19
agent	-20
ss	-21
ve	-22
ner	-23
▁re	-24
ab	-25
al	-26
ec	-27
it	-28
▁Plan	-29
▁Planner	-30
▁f	-31
aby	-32
tion	-33
▁e	-34
ion	-35
ut	-36
▁B	-37
▁S	-38
▁p	-39
iss	-40
ission	-41
om	-42
▁c	-43
▁d	-44
▁i	-45
▁l	-46
▁an	-47
▁su	-48
▁to	-49
▁Baby	-50
ac	-51
ce	-52
▁mission	-53
as	-54
em	-55
ro	-56
▁I	-57
▁M	-58
▁b	-59
▁and	-60
es	-61
et	-62
ho	-63
il	-64
ni	-65
oc	-66
pl	-67
▁T	-68
ain	-69
ali	-70
ask	-71
ate	-72
ory	-73
▁ex	-74
▁sa	-75
ding	-76
emory	-77
nc	-78
oi	-79
st	-80
ur	-81
wa	-82
▁n	-83
▁z	-84
err	-85
ort	-86
tim	-87
ure	-88
▁Al	-89
▁in	-90
aliz	-91
port	-92
wait	-93
▁int	-94
▁zon	-95
agents	-96
errain	-97
▁report	-98
am	-99
ar	-100
ay	-101
de	-102
ew	-103
le	-104
mu	-105
og	-106
ri	-107
▁a	-108
▁w	-109
all	-110
ect	-111
ive	-112
lay	-113
rve	-114
itor	-115
niti	-116
oint	-117
tive	-118
▁com	-119
▁for	-120
▁mon	-121
▁pro	-122
▁rec	-123
▁saf	-124
ation	-125
illan	-126
▁baby	-127
▁into	-128
▁task	-129
▁Await	-130
▁Initi	-131
▁relay	-132
▁surve	-133
illance	-134
▁memory	-135
▁monitor	-136
▁Awaiting	-137
▁Initializ	-138
-7	-139
0.	-140
ap	-141
ga	-142
ic	-143
is	-144
ld	-145
ly	-146
ma	-147
nd	-148
ol	-149
ou	-150
oy	-151
pa	-152
ru	-153
tr	-154
um	-155
wn	-156
▁2	-157
▁7	-158
▁g	-159
▁u	-160
ack	-161
ail	-162
ata	-163
can	-164
cce	-165
ecu	-166
eed	-167
epl	-168
ged	-169
hre	-170
ncy	-171
nga	-172
nic	-173
ode	-174
ogs	-175
ong	-176
rid	-177
ruc	-178
sho	-179
ter	-180
toc	-181
ute	-182
ved	-183
ver	-184
▁0.	-185
▁In	-186
▁St	-187
▁at	-188
▁ch	-189
▁ho	-190
▁if	-191
amma	-192
ated	-193
back	-194
ceed	-195
time	-196
trac	-197
vent	-198
▁All	-199
▁Map	-200
▁all	-201
▁con	-202
▁lan	-203
▁new	-204
▁res	-205
▁set	-206
▁sub	-207
▁wit	-208
ating	-209
ccess	-210
eploy	-211
munic	-212
shold	-213
struc	-214
tions	-215
tocol	-216
▁Task	-217
▁anom	-218
▁data	-219
▁enga	-220
▁fail	-221
▁feed	-222
▁long	-223
▁safe	-224
▁scan	-225
▁thre	-226
▁zone	-227
ective	-228
inding	-229
▁compl	-230
▁execu	-231
▁saved	-232
▁zones	-233
▁Memory	-234
▁deploy	-235
traction	-236
▁Terrain	-237
▁engaged	-238
▁failure	-239
▁instruc	-240
▁landing	-241
▁success	-242
▁terrain	-243
▁protocol	-244
munication	-245
▁execution	-246
▁threshold	-247
▁Initialized	-248
▁instructions	-249
▁surveillance	-250
27	-251
7.	-252
ad	-253
ch	-254
dd	-255
do	-256
eg	-257
fi	-258
fu	-259
fy	-260
ha	-261
hf	-262
kp	-263
me	-264
mm	-265
op	-266
os	-267
pd	-268
pt	-269
rm	-270
ry	-271
se	-272
th	-273
ub	-274
us	-275
▁h	-276
-7.	-277
abl	-278
aly	-279
ary	-280
ass	-281
cur	-282
dle	-283
eac	-284
eam	-285
ear	-286
eco	-287
eis	-288
ert	-289
est	-290
ete	-291
ets	-292
ful	-293
ger	-294
gre	-295
har	-296
hut	-297
ify	-298
imu	-299
ind	-300
ire	-301
ish	-302
itt	-303
ity	-304
lac	-305
lev	-306
mic	-307
oad	-308
oal	-309
ock	-310
omm	-311
one	-312
ont	-313
ore	-314
osi	-315
ous	-316
pha	-317
pon	-318
put	-319
ran	-320
red	-321
ree	-322
rig	-323
rop	-324
sti	-325
sur	-326
tiv	-327
urs	-328
voi	-329
xec	-330
ync	-331
yst	-332
▁2:	-333
▁7:	-334
▁ac	-335
▁dr	-336
▁is	-337
▁no	-338
▁on	-339
▁op	-340
▁ro	-341
▁st	-342
ased	-343
athf	-344
atus	-345
dent	-346
down	-347
eckp	-348
egin	-349
ener	-350
erge	-351
firm	-352
hout	-353
imul	-354
inge	-355
inut	-356
irec	-357
ment	-358
ncry	-359
nder	-360
ogic	-361
onom	-362
ound	-363
oute	-364
over	-365
pare	-366
pawn	-367
ping	-368
pted	-369
rent	-370
stim	-371
term	-372
tery	-373
ther	-374
uman	-375
umed	-376
▁0.2	-377
▁Add	-378
▁Pro	-379
▁Sec	-380
▁Spl	-381
▁Sub	-382
▁aut	-383
▁bat	-384
▁det	-385
▁fur	-386
▁fut	-387
▁loc	-388
▁pre	-389
▁upd	-390
alies	-391
alize	-392
ceeds	-393
ching	-394
eacon	-395
ecomm	-396
ecove	-397
etion	-398
fully	-399
gress	-400
harge	-401
laced	-402
mmary	-403
oaded	-404
ously	-405
ponse	-406
range	-407
reate	-408
stabl	-409
stile	-410
surve	-411
timal	-412
uting	-413
ynced	-414
ystem	-415
▁0.7.	-416
▁Pass	-417
▁Sear	-418
▁Trig	-419
▁avoi	-420
▁cont	-421
▁drop	-422
▁elev	-423
▁exit	-424
▁goal	-425
▁grid	-426
▁idle	-427
▁late	-428
▁live	-429
▁logs	-430
▁mode	-431
▁node	-432
▁pock	-433
▁posi	-434
▁real	-435
▁seis	-436
▁shut	-437
▁team	-438
▁time	-439
▁tree	-440
▁wind	-441
▁with	-442
ecting	-443
ervent	-444
firmed	-445
inutes	-446
itting	-447
pawned	-448
tivity	-449
ursive	-450
▁Alert	-451
▁Alloc	-452
▁Alpha	-453
▁Begin	-454
▁Ident	-455
▁Merge	-456
▁Point	-457
▁Simul	-458
▁Store	-459
▁await	-460
▁based	-461
▁chain	-462
▁direc	-463
▁drone	-464
▁encry	-465
▁event	-466
▁found	-467
▁hover	-468
▁human	-469
▁input	-470
▁	-471
e	-472
n	-473
t	-474
a	-475
i	-476
o	-477
r	-478
s	-479
l	-480
g	-481
c	-482
d	-483
m	-484
.	-485
:	-486
u	-487
y	-488
p	-489
A	-490
b	-491
-	-492
f	-493
v	-494
h	-495
P	-496
w	-497
B	-498
S	-499
k	-500
z	-501
x	-502
7	-503
I	-504
M	-505
2	-506
T	-507
0	-508
